11111000
00001111
11111001
00000010
11101101
00000000
00001011
11110110
00010000
11110100
11110000
11110000
00000110
11111100
11111100
11110110
11110110
11110000
11110110
11111110
00000101
00000100
00001010
00001100
00001011
11110001
00000101
00000000
00001011
11111101
11111011
11110101
11110001
11111111
11110001
11111001
00001101
00000110
11110101
11111010
00000110
11111111
00000011
11110010
00000000
00000000
00001010
11110100
11111001
11111100
00000111
11111100
00001101
00000001
00001110
11111110
11111100
11111000
00000010
11101110
11111100
00001000
11111110
00000100
XXXXXXXX
00001101
00000000
00001001
11110000
11110000
11111001
11110111
11110101
11111111
11111111
00000101
00001111
11110101
00000111
11110111
00001110
11110001
00000001
00001110
11111000
11110111
11111110
00001111
11111011
11111001
00000011
11110101
11110010
00000000
00001100
11110010
11111110
11110111
11111000
00000001
11111000
00000010
11110001
00001100
00000110
00000000
11111010
00000000
00000001
11110100
11111001
11111010
11111101
00000000
11111001
11110110
11110000
11111010
11110100
00000101
00000010
11110100
00001011
00001010
11111010
11111100
11110111
00000101
00001101
XXXXXXXX
00000100
11111101
00000111
00010010
11111111
00000111
00000000
11111010
00001010
11111010
00000101
11111110
00010000
00010011
00001110
11111100
11110001
00000010
11111111
00000110
00010010
00001000
00000110
00001110
00001101
00000011
11111010
11111000
00000101
00011011
00010010
11110010
00010000
11110110
11111001
00001111
11111101
00000101
00010101
11110010
00001011
11111101
11111110
00001010
00001000
11110101
11111000
00001101
11110010
11111100
11111010
00010101
11110100
11110011
11110101
11111101
11111100
00000110
11110001
00000011
00000001
11101110
11110001
11110001
XXXXXXXX
00001110
11111101
11110111
00001010
11110001
00001100
11111001
11111000
11111010
00000100
00000110
00000101
11111011
00000010
00000111
11110011
11111010
00001110
00000101
00000000
00001011
00000101
11111111
11110001
11111001
00000001
11101101
00000111
11111111
11110101
11101110
00001010
11110111
00001001
00000110
00000100
00000100
11111100
00000011
00001100
00000100
00000011
00000111
00000101
00001001
11110100
11110111
00001001
00000101
11110001
00001010
00000011
11111001
00001011
11110010
00000101
00000111
00000000
00001110
11110001
00000111
00001011
11110000
11111000
XXXXXXXX
11110000
11110010
00001011
00000000
00000011
11110010
00000010
11111110
00000111
00000011
11111010
00000100
11111110
00000111
11110111
00000110
00001001
11111001
00001100
00000100
11110110
11110111
11110001
11111011
11111100
11110101
11111000
11110110
00000101
11111111
11110000
00000010
00001111
00001110
11101111
00001101
00000100
11110111
00001000
00001111
11110110
11110100
00001110
00000111
11111110
11111010
00000101
00001001
00001011
11111010
11110000
11111001
11110010
11111000
11110100
00000111
11110001
00001110
00000001
11110110
11111110
11111110
11110101
11110100
XXXXXXXX
00001111
11110110
11111111
11110101
11111001
00000010
11111110
11110010
11110101
00000000
11111110
11110001
00001001
11111011
00000011
00000100
11110111
00001000
00000110
00000001
00001000
00000010
00000011
00001110
00001101
00000001
00000111
11111110
00000101
11111111
11110111
11111000
11111111
00001000
11111000
00000100
00000000
00001001
00000111
00000110
00000101
11111001
00000110
11111001
00000110
11110001
00000110
11111100
00000011
11111001
11110111
11110111
11110011
11110110
00000000
11111010
11110110
00000000
00000101
11111001
11110110
00000011
11111101
11111100
XXXXXXXX
11110010
00001001
11110101
00000011
00001000
11101001
11111100
00001100
00000110
00000011
00000111
00001101
00000101
00001111
11111111
00001111
11110101
11111111
00000110
00000000
11111101
00010001
00001000
11110100
00001001
11111011
00001011
11110011
11111100
00101001
00011000
11110010
11111110
00011010
00010110
11111101
11101010
00010101
00101001
00000110
00001000
00001101
11111011
00000001
11111010
00000000
11111110
11110100
00010000
11111101
11111100
11110000
11111000
11101010
11110001
11111111
11111001
00000011
11111111
00000100
11100101
11101101
11101101
11111000
XXXXXXXX
00010000
00001100
11111101
00000110
00010000
11111101
00001100
00000010
11110111
00001110
00001101
00010100
00000000
00000100
00000100
00000110
00001100
00001010
11110100
11101000
00000011
11111000
11110100
11110111
00001011
11101110
11110010
11011011
11111111
00001000
00001110
00001010
11111001
00000000
11111011
00010011
00000111
00000011
00001001
11111111
11111010
11110011
00010110
00011010
00000110
11111010
00000010
11111001
11110001
11111111
00000111
00011011
00000011
11111111
00010110
11110011
11111100
00000011
00010110
00000110
11110010
00100000
00001111
00000110
XXXXXXXX
00000010
00001000
11111101
11111001
00011000
11111111
11111100
00001010
11110010
00001010
11111101
11111111
00001000
00011100
00000011
00001100
00000010
00000100
11110100
00000010
00010011
00000111
00000001
11110110
00001000
00000010
00001010
00010100
00011000
11111101
11110011
11111010
11111100
00000101
11110001
11111010
00010010
00010010
00000100
00000101
00001100
11111000
11111011
11100110
00001101
00010101
00010001
11110100
11111100
11111101
11111010
11110011
11101100
00000101
00000000
11111111
00001100
11111001
00001000
00000101
00001111
00000001
11110010
11110100
XXXXXXXX
00001011
11111000
00001100
00000111
00000011
11111101
00000011
11111010
11110110
00001000
11111101
00001100
00001001
00001110
11111010
11111000
00001111
00000110
11111110
00000100
00010111
00001000
00000111
00000110
11111110
00000101
00000000
00000010
00001011
00000100
11111011
00001101
11111010
11110101
11111010
11100110
11100011
00000000
00000111
00001111
00001110
11101101
11011101
11100100
11111001
11111010
00000111
11110111
00001100
11111111
11111111
00001011
00011101
00010110
00001011
00001111
00001001
00000111
00000101
00001111
00001111
00010000
00001000
00000000
XXXXXXXX
11110110
11111110
11110101
11110010
11111110
11101001
11101111
00000110
11111001
11111010
11110100
00001111
11111101
11101110
11111101
00001100
11111000
11110100
11111101
00010000
11111001
11101001
11110110
00000010
11111011
00001010
11111101
00001000
00001001
00000101
00001011
11110001
00001001
00010101
00010111
00000010
00011100
00000011
00000000
11111110
00001100
00001111
00001100
00001011
00011000
00001010
00001001
11110010
00001001
00001101
11111000
00010011
00000110
11101010
00000110
11110101
11110011
00000101
11110100
11101101
00001000
00000010
00000010
11110110
XXXXXXXX
11111001
11110110
00000001
00010001
11111010
00010001
11111101
00001010
00001000
11110111
00000101
11111100
00001010
00001100
11111010
00001011
00010000
00001010
11111010
00001110
00000110
11111101
11111001
11111011
11110000
00001001
00001101
00000010
00010001
11111000
00000111
00001011
00001110
11110100
11110110
00011010
00000000
11110001
11110001
11111100
11111000
00001111
00001100
11111001
00010001
00001000
11111101
11111011
00001011
11111110
11111001
11110100
11111111
00000000
11111101
00000000
11111101
11111010
11111100
00010100
11110111
11110101
00000101
11110011
XXXXXXXX
11111000
11111111
11110000
11111111
00001010
11110000
11101011
00001100
00000010
11111000
00001010
00000110
11100110
11111110
00000111
11110110
00001001
00000010
00000010
11101011
11111111
00001101
00001101
11111000
00000001
00001000
11111011
11110100
11110101
11101010
11111000
00000101
00000011
11111100
00001110
00000000
00010011
00000111
11111110
00000011
00000010
00000101
00011000
11111111
11110100
00011100
00010000
11110101
00000001
11110011
00011011
11101000
11111110
00010100
11111110
11110111
00001001
00001010
11110110
00001100
00011100
11110101
11101011
00000101
XXXXXXXX
11111110
11110111
00001100
00001110
11110001
00001000
00000001
00001000
11110100
00000001
11110110
11111001
11110100
11111001
11110010
00001001
00000101
00000110
00000001
00000101
00000001
00001101
11110101
11111000
11111011
11110111
11111101
00000101
00000010
00000010
00000111
00000100
11110101
11110111
11110011
11111111
00001010
00000111
00001000
00000101
11111001
00000111
11111011
00000101
00000010
00000000
11111010
11111101
00001000
11110010
11110011
11110110
11111000
11111111
00001101
11111000
00001111
00000110
11110100
11111000
11110011
00001000
11111001
00001100
XXXXXXXX
00001010
00000011
00000101
00000101
00000101
00001010
00001001
11111010
00000010
00001000
00000101
11111111
11101011
11101000
00000001
11111010
00000010
00000011
00001000
00001000
11101100
11010100
11110010
00000111
11110101
00010010
00011111
00000101
11110010
11110101
11111100
00000010
11110111
00000000
00011100
11111001
00001110
00010111
00010000
00000000
11110010
11111111
00000000
00001110
11111010
00001100
00001011
11110011
11111111
00001000
11110100
00000101
00010011
11110110
00000111
00000111
00000011
11111111
00000010
00000111
00000101
00000010
11101101
00000110
XXXXXXXX
11111101
11111010
00000100
00000111
00010011
00011011
00001100
11111101
00001110
11111011
00000011
00001011
11111100
00000011
00000011
00001110
11110101
00000111
11111110
11101110
00000010
11101000
11101100
11110010
11111110
00000111
11100111
11101011
11110111
11101110
11110011
00000000
11111110
11111011
00001001
11110110
00001001
00000101
00000001
00000100
11110110
00000101
11111011
11110010
11111110
00000101
00010101
00000000
00000100
00000011
00000101
00001101
00000001
00001100
00000010
00000111
00000011
00001001
00011111
00100000
11110100
11110111
00001001
11110100
XXXXXXXX
11111000
11110011
11111100
00001001
00001010
11101111
11111111
00001001
00001011
00001010
11111010
00000110
11111111
00010100
11111001
00001100
11111110
11111110
11111101
00000010
11110110
00001010
00000110
00000000
00000000
00001001
00000100
11101011
11101001
11111100
00010100
00000001
00001001
00000100
00000111
11100011
11101101
00001001
00001100
11111100
00001100
00010100
00100000
11111010
11111000
11111111
11110010
11110010
00000000
11111000
00010101
00001110
00001000
00001011
11111000
00000011
11110001
11110101
11111111
11111010
00001101
11110101
11110101
11111111
XXXXXXXX
11111101
11110010
00001000
11111101
00010010
00001110
00001011
00001011
11111001
00001101
11110001
00010000
11111110
11111110
11110101
11111101
11110001
00001101
00000110
00001111
00000001
11110100
11111000
00001001
00000000
11111101
00000001
00000001
00010001
11111101
00001011
00001101
00001100
11111010
00000111
00000110
00001110
11111111
11110110
00001101
11111011
00000111
11111011
11110010
00001000
00000110
11110100
11111001
00001100
11110100
11110111
11110110
00010001
11111110
11111001
11110001
11111011
11110010
00010101
11111101
11110100
00000111
11111110
11111001
XXXXXXXX
00001000
00000000
11110111
00000101
11111110
11110000
11110110
00001101
00000001
11111111
11111101
11101111
00001001
11111000
00001011
11111001
00001111
00001011
11110011
00000110
00001100
00000110
00000000
11111110
00000000
11111110
11111011
00010000
00001001
00000001
00000100
00001100
00001000
11111000
00000001
11111100
11111010
11111001
11111000
11110011
00000010
11110101
00000111
11110000
00001111
11110101
11110001
00001000
00001011
00001111
11111001
00001111
00001011
11110001
00001101
00000100
00001101
11111100
11110101
00000010
11101111
11111100
11110111
00001101
XXXXXXXX
00000010
00001010
00000101
00001010
00001011
11101101
11110111
11110001
00001100
11111100
11101110
00001101
00010001
00010010
11110101
11111001
11111000
00001001
00001000
00011101
00101010
00001101
11111110
00000010
11111000
00000001
11110101
11110111
00000001
11110100
00001001
00001010
00001101
00000011
00001101
00000011
00001110
11111110
00001000
11110111
11111001
00000111
00001111
00000111
00000010
00001000
00010010
11110101
00000110
11111111
00010011
00011101
00100011
00011101
00011010
11110111
00001100
00000101
11110001
00010000
00100001
00110010
00000110
00001010